00111110100000000000100011101100
00111110000110101011100110011101
00111110101110001101111111000001
00111111001001011011110111010011
10111110011011011011010101000100
10111111001101111010110010000101
10111110100011111000000001001011
00111111011011100001101101101000
10111111010001100110011010011011
10111110000000110111010111110010
