10111110110001011110100111111010
00111111000000000101011101011011
10111111001110101100111110001110
10111110100101000001111010100101
00111110101011011001110000100000
00111111010000010011101100101001
00111111011001000000110000101101
10111110100001110100001010010101
00111110110000000010110101010001
00111101100001010101011111001111
10111111100001110100100111100010
10111111101010010000011000101011
10111111001001101110101010011001
00111111111001010000001100110100
00111110101110111010111100000101
