10111100000001111101010100110110
00111100100010111000011010000110
10111101001001000101111110111110
10111011101010101001100000000100
10111101001000101011110111111000
10111101000010001111001110011111
10111101000111011010100110101001
00111100010010011110111111111001
10111101010001000111110001101001
10111100110110101000111010100010
10111101001011110010101010110011
10111101010001010000010100000101
00111100010110101110101001110010
00111101001101001110010001100110
10111100001010011100110101101110
00111100101101000101010100110010
10111100000001110101111010101111
10111100000000010010010100001110
00111101001001110011011100001110
10111100000011001011000000100111
00111101001011101111010010000101
00111101001101111111001101011001
10111101010001100010010110100100
10111101010000011110010100100101
00111100111110110101110010011000
00111101001111110011101011010110
10111101001011111111011100110111
10111100101100101011001100000110
10111101000001011000100101100111
00111101001111110000101010001111
10111101010011001001001100110001
00111011110000000010010111001010
00111101001110110110001101101011
10111100101010001110110010011000
00111100100111110001110100110001
10111100011110010011010000010100
10111011101000111111110000110100
00111101001011111011111010010010
10111101010000010000100110011101
10111100001101111001000110111101
00111011110111101111010100011000
10111010101100101101001001010000
00111100110010111011000000100111
10111100110111000010010110000101
10111101000000110001000000001011
10111100101000011100100111001010
10111101000100110010101101011001
00111011010110010010100110100111
10111100101011011011010000000011
10111100000011000111110010000101
00111100110011010100100101010100
00111100000000000101001001100000
00111100100111000011111100100110
10111100110011111011100100010110
00111101000101001100011011110100
10111100111100101101100111000111
00111100001011100000111011111100
10111101001100011001100100001111
00111100010000110000010100111000
10111101000101110101100100001101
10111101000100001001000000011000
10111100111101110001100110011101
00111100100111010000110010000110
10111101000101110110100010001111
10111101001110000010110110111100
00111100101110001111100111110111
10111100000101100110000010110101
00111101010010111000011010110100
00111101000100110101011011010010
00111100110010100100010000010001
10111100110010101011011111011010
00111011111000010110101001111110
10111100110101100110001100111001
00111101001000101000100010110110
10111101000101101100011001001000
10111101001001101101010100110100
00111100111101100010011111010101
10111100100101101111111110000001
10111101010001001011001000101100
00111011011010110000101111010010
00111101000111001101110110010100
10111100110101110011110101110100
10111101000001100001011110110010
00111011011111100100001100010001
00111011101110000010000010101110
00111100110001111001000101111111
10111100100101010111110010001111
00111100110111011010011110111011
00111101000110101011000000011010
00111010010100100111111001101000
10111101000000000110010101100000
00111101001111111010001000001111
00111100100110001010011000001001
00111100100100100101111111100100
00111100100001100001000001010101
00111100010010100111001011000000
00111101001001010001010010011010
10111101000101000111111111110111
00111011101011001110111110111000
10111101000101001100011101000010
10111100111110010100100101111101
00111101010001111111011010001001
10111101000000000011110100001111
00111011100010010001100111011010
10111101010000111100010110110101
10111100011111001101000000101010
10111100100110001011010110111111
00111101000010001111000110000011
10111100111011000000011101010101
00111010110000101111110000111110
00111100110011010110010010101000
00111011111100010011100100010011
00111101001100010000100101110010
00111101000010111111100101010101
10111101001101000001100111010011
00111100000001010010111010110011
00111100000000101000101001110100
00111100010101010110011110100110
00111101001000010010001101110110
00111101001101100111000110101001
10111100001010001111110100101111
00111100100111010110100111100011
10111101010001010010001100101101
10111100101111111110010110100100
00111101001101011111001010010011
10111100011101110101100101111110
10111101010010110111001001110111
00111100101000010001011111011000
10111101000110011100110111111101
10111101000110101111011001110110
00111101010000000101101001001000
10111100010001000011010010101110
00111011001001101100001001001100
00111100011000110111100011100001
00111101000000111110001100110001
00111011011111100010101100010100
00111101000110100000100011101011
00111100110011001011110101101000
10111010010111001011011001001111
00111100000011011011000000110111
10111100101111000100111110100010
00111100001111111100001101100100
10111101001100011001110010010101
10111100101101001011110001000000
10111101001110100110001110100100
00111101000011011110111111111101
00111011101001101100110101001001
00111101001001100010001011111111
10111100011111010010110000010000
10111101010010000000010110110110
