00111111100000000000000000000000
00111111100000000000000000000000
00111111100000000000000000000000
00111111100000000000000000000000
11000000101000000000000000000000
11000000101000000000000000000000
00000000000000000000000000000000
00000000000000000000000000000000
00111111100000000000000000000000
00111111100000000000000000000000