00111111100000000000000000000000
00111111100000000000000000000000
01000011001110110000000000000000
00111111100000000000000000000000
00111111100000000000000000000000
00111111100000000000000000000000
00111111100000000000000000000000
00111111100000000000000000000000
00111111100000000000000000000000
00111111100000000000000000000000
00111111100000000000000000000000
00111111100000000000000000000000
00111111100000000000000000000000
00111111100000000000000000000000
00111111100000000000000000000000