00111111100000000000000000000000
00111111100000000000000000000000
00000000000000000000000000000000
00111111100000000000000000000000
00000000000000000000000000000000
01100000000000000000000000000000
00111111100000000000000000000000
00111111100000000000000000000000
00111111100000000000000000000000
00111111100000000000000000000000
00111111100000000110000000000000
00111111100000000000000000000000
00111111110000000000000000000000
00111111100000000000000000000000
00111111100000000000000000000000
00111111100000000000000000000000
00111111111100000000000000000000
00111111100000000000000000000000
00111111100000000000000000000000
00111111100000000000000000000000
00111111111111111111111100000000
00111111100000000000000000000000
00111111100000000000000000000000
00111111100000000000000000000000
00111111111111000000000000000000
00000000000000000000000000000000
00000000000000000000000000000000
00111111100000000000000000000000
00000000000000000000000000000000
00000000000000000000000000000000